# SPDX-FileCopyrightText: Copyright 2021, 2024 Arm Limited and/or its affiliates <open-source-office@arm.com>
#
# SPDX-License-Identifier: Apache-2.0
#
# Licensed under the Apache License, Version 2.0 (the License); you may
# not use this file except in compliance with the License.
# You may obtain a copy of the License at
#
# www.apache.org/licenses/LICENSE-2.0
#
# Unless required by applicable law or agreed to in writing, software
# distributed under the License is distributed on an AS IS BASIS, WITHOUT
# WARRANTIES OR CONDITIONS OF ANY KIND, either express or implied.
# See the License for the specific language governing permissions and
# limitations under the License.
#
"""Network test data of TFLite flatbuffer INT8(1x64x64x16) -> CONV2D(k1x1, s1x1, d1x1, bias[8]) -> INT8(1x64x64x8)"""
# fmt: off
TEST_NETWORK = bytes([
  0x18, 0x00, 0x00, 0x00, 0x54, 0x46, 0x4c, 0x33, 0x10, 0x00, 0x18, 0x00, 0x04, 0x00, 0x08, 0x00, 0x0c, 0x00, 0x10, 0x00, 0x14, 0x00, 0x00, 0x00,
  0x10, 0x00, 0x00, 0x00, 0x03, 0x00, 0x00, 0x00, 0x10, 0x00, 0x00, 0x00, 0x2c, 0x00, 0x00, 0x00, 0x30, 0x04, 0x00, 0x00, 0x40, 0x04, 0x00, 0x00,
  0x01, 0x00, 0x00, 0x00, 0x10, 0x00, 0x00, 0x00, 0x0a, 0x00, 0x0c, 0x00, 0x04, 0x00, 0x00, 0x00, 0x08, 0x00, 0x00, 0x00, 0x0c, 0x00, 0x00, 0x00,
  0x03, 0x00, 0x00, 0x00, 0x01, 0x00, 0x00, 0x00, 0x01, 0x00, 0x00, 0x00, 0x10, 0x00, 0x00, 0x00, 0x0c, 0x00, 0x14, 0x00, 0x04, 0x00, 0x08, 0x00,
  0x0c, 0x00, 0x10, 0x00, 0x0c, 0x00, 0x00, 0x00, 0x10, 0x00, 0x00, 0x00, 0x5c, 0x03, 0x00, 0x00, 0x60, 0x03, 0x00, 0x00, 0x64, 0x03, 0x00, 0x00,
  0x04, 0x00, 0x00, 0x00, 0x20, 0x00, 0x00, 0x00, 0xc8, 0x00, 0x00, 0x00, 0xb4, 0x01, 0x00, 0x00, 0x80, 0x02, 0x00, 0x00, 0x10, 0x00, 0x19, 0x00,
  0x04, 0x00, 0x08, 0x00, 0x0c, 0x00, 0x10, 0x00, 0x14, 0x00, 0x18, 0x00, 0x10, 0x00, 0x00, 0x00, 0x18, 0x00, 0x00, 0x00, 0x09, 0x00, 0x00, 0x00,
  0x00, 0x00, 0x00, 0x00, 0x20, 0x00, 0x00, 0x00, 0x5c, 0x00, 0x00, 0x00, 0x00, 0x00, 0x00, 0x00, 0x04, 0x00, 0x00, 0x00, 0x01, 0x00, 0x00, 0x00,
  0x40, 0x00, 0x00, 0x00, 0x40, 0x00, 0x00, 0x00, 0x10, 0x00, 0x00, 0x00, 0x29, 0x00, 0x00, 0x00, 0x4d, 0x6f, 0x62, 0x69, 0x6c, 0x65, 0x6e, 0x65,
  0x74, 0x56, 0x32, 0x2f, 0x65, 0x78, 0x70, 0x61, 0x6e, 0x64, 0x65, 0x64, 0x5f, 0x63, 0x6f, 0x6e, 0x76, 0x2f, 0x64, 0x65, 0x70, 0x74, 0x68, 0x77,
  0x69, 0x73, 0x65, 0x2f, 0x52, 0x65, 0x6c, 0x75, 0x36, 0x00, 0x12, 0x00, 0x18, 0x00, 0x04, 0x00, 0x08, 0x00, 0x0c, 0x00, 0x10, 0x00, 0x00, 0x00,
  0x00, 0x00, 0x14, 0x00, 0x12, 0x00, 0x00, 0x00, 0x14, 0x00, 0x00, 0x00, 0x18, 0x00, 0x00, 0x00, 0x1c, 0x00, 0x00, 0x00, 0x20, 0x00, 0x00, 0x00,
  0x00, 0x00, 0x00, 0x00, 0x01, 0x00, 0x00, 0x00, 0x00, 0x00, 0x00, 0x00, 0x01, 0x00, 0x00, 0x00, 0x00, 0x00, 0xc0, 0x40, 0x01, 0x00, 0x00, 0x00,
  0xc1, 0xc0, 0xc0, 0x3c, 0x01, 0x00, 0x00, 0x00, 0x80, 0xff, 0xff, 0xff, 0xff, 0xff, 0xff, 0xff, 0xbc, 0x00, 0x00, 0x00, 0x18, 0x00, 0x00, 0x00,
  0x09, 0x00, 0x00, 0x00, 0x01, 0x00, 0x00, 0x00, 0x20, 0x00, 0x00, 0x00, 0x64, 0x00, 0x00, 0x00, 0x00, 0x00, 0x00, 0x00, 0x04, 0x00, 0x00, 0x00,
  0x08, 0x00, 0x00, 0x00, 0x01, 0x00, 0x00, 0x00, 0x01, 0x00, 0x00, 0x00, 0x10, 0x00, 0x00, 0x00, 0x2e, 0x00, 0x00, 0x00, 0x4d, 0x6f, 0x62, 0x69,
  0x6c, 0x65, 0x6e, 0x65, 0x74, 0x56, 0x32, 0x2f, 0x65, 0x78, 0x70, 0x61, 0x6e, 0x64, 0x65, 0x64, 0x5f, 0x63, 0x6f, 0x6e, 0x76, 0x2f, 0x70, 0x72,
  0x6f, 0x6a, 0x65, 0x63, 0x74, 0x2f, 0x77, 0x65, 0x69, 0x67, 0x68, 0x74, 0x73, 0x2f, 0x72, 0x65, 0x61, 0x64, 0x00, 0x00, 0x12, 0x00, 0x10, 0x00,
  0x00, 0x00, 0x00, 0x00, 0x04, 0x00, 0x08, 0x00, 0x00, 0x00, 0x00, 0x00, 0x0c, 0x00, 0x00, 0x00, 0x14, 0x00, 0x00, 0x00, 0x0c, 0x00, 0x00, 0x00,
  0x2c, 0x00, 0x00, 0x00, 0x00, 0x00, 0x00, 0x00, 0x08, 0x00, 0x00, 0x00, 0xd8, 0x51, 0x81, 0x3c, 0x16, 0x66, 0x98, 0x3c, 0x56, 0xc3, 0xa6, 0x3c,
  0xc7, 0x65, 0x1c, 0x3c, 0xba, 0xdc, 0xe3, 0x3c, 0xae, 0x19, 0xb9, 0x3c, 0xed, 0x47, 0xc6, 0x3c, 0x29, 0x29, 0x88, 0x3c, 0x08, 0x00, 0x00, 0x00,
  0x00, 0x00, 0x00, 0x00, 0x00, 0x00, 0x00, 0x00, 0x00, 0x00, 0x00, 0x00, 0x00, 0x00, 0x00, 0x00, 0x00, 0x00, 0x00, 0x00, 0x00, 0x00, 0x00, 0x00,
  0x00, 0x00, 0x00, 0x00, 0x00, 0x00, 0x00, 0x00, 0x00, 0x00, 0x00, 0x00, 0x00, 0x00, 0x00, 0x00, 0x00, 0x00, 0x00, 0x00, 0x00, 0x00, 0x00, 0x00,
  0x00, 0x00, 0x00, 0x00, 0x00, 0x00, 0x00, 0x00, 0x00, 0x00, 0x00, 0x00, 0x00, 0x00, 0x00, 0x00, 0xac, 0x01, 0x00, 0x00, 0x18, 0x00, 0x00, 0x00,
  0x02, 0x00, 0x00, 0x00, 0x02, 0x00, 0x00, 0x00, 0x14, 0x00, 0x00, 0x00, 0x44, 0x00, 0x00, 0x00, 0x00, 0x00, 0x00, 0x00, 0x01, 0x00, 0x00, 0x00,
  0x08, 0x00, 0x00, 0x00, 0x2d, 0x00, 0x00, 0x00, 0x4d, 0x6f, 0x62, 0x69, 0x6c, 0x65, 0x6e, 0x65, 0x74, 0x56, 0x32, 0x2f, 0x65, 0x78, 0x70, 0x61,
  0x6e, 0x64, 0x65, 0x64, 0x5f, 0x63, 0x6f, 0x6e, 0x76, 0x2f, 0x70, 0x72, 0x6f, 0x6a, 0x65, 0x63, 0x74, 0x2f, 0x43, 0x6f, 0x6e, 0x76, 0x32, 0x44,
  0x5f, 0x62, 0x69, 0x61, 0x73, 0x00, 0x00, 0x00, 0xe4, 0x00, 0x00, 0x00, 0x0c, 0x00, 0x00, 0x00, 0x2c, 0x00, 0x00, 0x00, 0x00, 0x00, 0x00, 0x00,
  0x08, 0x00, 0x00, 0x00, 0x82, 0xbd, 0xc2, 0x39, 0xa0, 0x7e, 0xe5, 0x39, 0x21, 0x20, 0xfb, 0x39, 0x2f, 0x84, 0x6b, 0x39, 0x1d, 0x91, 0x2b, 0x3a,
  0xa1, 0x5e, 0x0b, 0x3a, 0x3d, 0x4b, 0x15, 0x3a, 0xc9, 0x0a, 0xcd, 0x39, 0x08, 0x00, 0x00, 0x00, 0x00, 0x00, 0x00, 0x00, 0x00, 0x00, 0x00, 0x00,
  0x00, 0x00, 0x00, 0x00, 0x00, 0x00, 0x00, 0x00, 0x00, 0x00, 0x00, 0x00, 0x00, 0x00, 0x00, 0x00, 0x00, 0x00, 0x00, 0x00, 0x00, 0x00, 0x00, 0x00,
  0x00, 0x00, 0x00, 0x00, 0x00, 0x00, 0x00, 0x00, 0x00, 0x00, 0x00, 0x00, 0x00, 0x00, 0x00, 0x00, 0x00, 0x00, 0x00, 0x00, 0x00, 0x00, 0x00, 0x00,
  0x00, 0x00, 0x00, 0x00, 0x00, 0x00, 0x00, 0x00, 0x7c, 0x02, 0x00, 0x00, 0x18, 0x00, 0x00, 0x00, 0x09, 0x00, 0x00, 0x00, 0x03, 0x00, 0x00, 0x00,
  0x20, 0x00, 0x00, 0x00, 0x70, 0x00, 0x00, 0x00, 0x00, 0x00, 0x00, 0x00, 0x04, 0x00, 0x00, 0x00, 0x01, 0x00, 0x00, 0x00, 0x40, 0x00, 0x00, 0x00,
  0x40, 0x00, 0x00, 0x00, 0x08, 0x00, 0x00, 0x00, 0x3a, 0x00, 0x00, 0x00, 0x4d, 0x6f, 0x62, 0x69, 0x6c, 0x65, 0x6e, 0x65, 0x74, 0x56, 0x32, 0x2f,
  0x65, 0x78, 0x70, 0x61, 0x6e, 0x64, 0x65, 0x64, 0x5f, 0x63, 0x6f, 0x6e, 0x76, 0x2f, 0x70, 0x72, 0x6f, 0x6a, 0x65, 0x63, 0x74, 0x2f, 0x42, 0x61,
  0x74, 0x63, 0x68, 0x4e, 0x6f, 0x72, 0x6d, 0x2f, 0x46, 0x75, 0x73, 0x65, 0x64, 0x42, 0x61, 0x74, 0x63, 0x68, 0x4e, 0x6f, 0x72, 0x6d, 0x00, 0x00,
  0x12, 0x00, 0x18, 0x00, 0x04, 0x00, 0x08, 0x00, 0x0c, 0x00, 0x10, 0x00, 0x00, 0x00, 0x00, 0x00, 0x14, 0x00, 0x00, 0x00, 0x14, 0x00, 0x00, 0x00,
  0x14, 0x00, 0x00, 0x00, 0x18, 0x00, 0x00, 0x00, 0x1c, 0x00, 0x00, 0x00, 0x20, 0x00, 0x00, 0x00, 0x00, 0x00, 0x00, 0x00, 0x01, 0x00, 0x00, 0x00,
  0x7e, 0xa5, 0xd0, 0xc1, 0x01, 0x00, 0x00, 0x00, 0x18, 0x1a, 0xe9, 0x41, 0x01, 0x00, 0x00, 0x00, 0x89, 0xbd, 0x5d, 0x3e, 0x01, 0x00, 0x00, 0x00,
  0xf8, 0xff, 0xff, 0xff, 0xff, 0xff, 0xff, 0xff, 0x01, 0x00, 0x00, 0x00, 0x00, 0x00, 0x00, 0x00, 0x01, 0x00, 0x00, 0x00, 0x03, 0x00, 0x00, 0x00,
  0x01, 0x00, 0x00, 0x00, 0x18, 0x00, 0x00, 0x00, 0x12, 0x00, 0x1d, 0x00, 0x04, 0x00, 0x08, 0x00, 0x0c, 0x00, 0x10, 0x00, 0x14, 0x00, 0x00, 0x00,
  0x1c, 0x00, 0x00, 0x00, 0x14, 0x00, 0x00, 0x00, 0x00, 0x00, 0x00, 0x00, 0x18, 0x00, 0x00, 0x00, 0x24, 0x00, 0x00, 0x00, 0x01, 0x00, 0x00, 0x00,
  0x34, 0x00, 0x00, 0x00, 0x00, 0x00, 0x00, 0x00, 0x00, 0x00, 0x00, 0x00, 0x03, 0x00, 0x00, 0x00, 0x00, 0x00, 0x00, 0x00, 0x01, 0x00, 0x00, 0x00,
  0x02, 0x00, 0x00, 0x00, 0x01, 0x00, 0x00, 0x00, 0x03, 0x00, 0x00, 0x00, 0x10, 0x00, 0x1c, 0x00, 0x04, 0x00, 0x08, 0x00, 0x0c, 0x00, 0x10, 0x00,
  0x14, 0x00, 0x18, 0x00, 0x10, 0x00, 0x00, 0x00, 0x00, 0x00, 0x00, 0x00, 0x01, 0x00, 0x00, 0x00, 0x01, 0x00, 0x00, 0x00, 0x00, 0x00, 0x00, 0x00,
  0x01, 0x00, 0x00, 0x00, 0x01, 0x00, 0x00, 0x00, 0x0e, 0x00, 0x00, 0x00, 0x54, 0x46, 0x4c, 0x4f, 0x20, 0x4f, 0x70, 0x74, 0x69, 0x6d, 0x69, 0x73,
  0x65, 0x64, 0x00, 0x00, 0x04, 0x00, 0x00, 0x00, 0x14, 0x00, 0x00, 0x00, 0x1c, 0x00, 0x00, 0x00, 0xa8, 0x00, 0x00, 0x00, 0xd4, 0x00, 0x00, 0x00,
  0x04, 0x00, 0x04, 0x00, 0x04, 0x00, 0x00, 0x00, 0x06, 0x00, 0x08, 0x00, 0x04, 0x00, 0x00, 0x00, 0x08, 0x00, 0x00, 0x00, 0x08, 0x00, 0x00, 0x00,
  0x00, 0x00, 0x00, 0x00, 0x80, 0x00, 0x00, 0x00, 0x06, 0xe1, 0xed, 0x2c, 0x03, 0x38, 0x2b, 0x7f, 0x66, 0xc0, 0xd3, 0x84, 0x11, 0x30, 0x05, 0xd8,
  0x02, 0xf6, 0x40, 0x0b, 0xff, 0x03, 0x66, 0xdb, 0xf5, 0xba, 0xd6, 0xfe, 0x81, 0x12, 0xfc, 0x30, 0xfc, 0xfb, 0x79, 0xf1, 0x07, 0xdb, 0xdf, 0x81,
  0x3e, 0xf8, 0x13, 0x0a, 0x2f, 0x07, 0x07, 0x01, 0xfd, 0x83, 0x04, 0x26, 0x14, 0x1e, 0x88, 0x56, 0xef, 0x81, 0xa2, 0x3d, 0xe2, 0x52, 0x02, 0x87,
  0x02, 0x0e, 0x2c, 0x06, 0xfa, 0x0d, 0x19, 0x62, 0xf8, 0x81, 0xff, 0x06, 0x0c, 0xf9, 0x07, 0xd6, 0x01, 0xe6, 0x01, 0x00, 0x00, 0xe1, 0xea, 0x7f,
  0xdc, 0xe4, 0x01, 0x00, 0x5b, 0x28, 0xf0, 0x58, 0x03, 0xfb, 0x0a, 0x01, 0x05, 0x00, 0xe1, 0x81, 0xc9, 0xa0, 0x0f, 0xd6, 0x0b, 0x15, 0x09, 0x08,
  0xff, 0xdb, 0xfd, 0xd7, 0x10, 0xe5, 0x7c, 0xab, 0xfa, 0x02, 0x0b, 0x1a, 0x7f, 0x14, 0x00, 0xd0, 0x98, 0x00, 0x00, 0x00, 0x08, 0x00, 0x00, 0x00,
  0x00, 0x00, 0x00, 0x00, 0x20, 0x00, 0x00, 0x00, 0xc3, 0xc4, 0xff, 0xff, 0x02, 0x08, 0x00, 0x00, 0x9b, 0xfd, 0xff, 0xff, 0xb2, 0x8b, 0x00, 0x00,
  0xda, 0xfd, 0xff, 0xff, 0xe1, 0xa4, 0xff, 0xff, 0xc3, 0x94, 0x00, 0x00, 0xad, 0xcd, 0xff, 0xff, 0xc8, 0x00, 0x00, 0x00, 0x08, 0x00, 0x00, 0x00,
  0x00, 0x00, 0x00, 0x00, 0x00, 0x00, 0x00, 0x00
])
# fmt: on
